-- begin_signature
-- int_weight1_bram
-- end_signature
WIDTH=512;
DEPTH=784;

ADDRESS_RADIX=UNS;
DATA_RADIX=BIN;

CONTENT BEGIN
	783 :	11111111011101000000000011001010000000000000001000000000000000101111111111101001000000000011011100000000000011001111111101011000111111111101010000000000100110000000000010100110000000000101000100000000000111010000000000110110000000000110101011111111111011011111111111000111111111110010001011111111101111111111111110111110000000001001011111111111110111111111111111100110111111111110100011111111100000101111111111111100111111111111101011111111100110110000000000000011111111111100111100000000011011111111111111001101;
	782 :	11111111111110010000000001000100000000000110000100000000100000000000000001111100000000000101010000000000011111011111111111011000000000001011000111111111001101010000000010010000111111111001101000000000001001010000000000100100111111111110100000000000010110101111111101001111000000000111000000000000001000001111111111111111111111111011101100000000000110100000000001101011000000000001011011111111110110010000000001001101000000000000011011111111111010001111111111010110111111111001101111111111101100011111111110110001;
	781 :	00000000100111101111111110000111111111111101001000000000011110000000000000110100000000000110100100000000001010000000000011010010000000000011101111111111111110100000000010010000111111111000001111111111011111111111111101111100111111111111111111111111111011000000000001011011111111111101001011111111101101000000000001011000111111111101000111111111010000010000000000000001000000000001011011111110111001000000000000011100111111111101100011111111011111111111111110101000111111111010001000000000000001011111111101011101;
	780 :	11111111100001010000000000001111000000000000111111111111011000001111111111101100111111111110101111111111011001010000000001111010111111111101000011111111111000001111111110110110000000000010011011111111111110010000000001011101000000000001110011111111101101100000000001011101000000001001100011111111110011100000000000111111000000000000110100000000000111111111111111001001000000000011101100000000001111101111111111100111111111111100011111111111111100111111111101000011000000000001001111111111110111101111111101100011;
	779 :	11111111110100000000000010111101111111110111011111111111110110001111111101110001111111111101111111111111111100010000000000011010000000000000100000000000011010000000000000110111000000010001011111111111100010111111111101111001000000000011100000000000011011011111111110111000000000000001110000000000000100100000000000100001111111111101111100000000000001110000000001000010111111111110101100000000011101010000000011000100000000000010011000000000001111011111111111111100000000000001011000000000100100011111111111000010;
	778 :	11111111110110100000000000101010000000000001110100000000000111001111111101100010111111110101111000000000010100000000000001100100111111111001110011111111101101001111111111110010000000000001111100000001000011000000000000111001000000001011000111111111111000000000000011001101111111111010110000000000000111100000000010100000111111111101110000000000101111010000000000100001000000000001100100000000001110011111111110000100111111110001010000000000010101001111111110110110111111111100110000000000000000001111111110111000;
	777 :	11111111101001110000000010010000111111111011110000000000011110101111111110100100111111111000111100000000000010010000000001001101111111111111100011111111011110000000000000010011000000000011100111111111101000100000000001111100000000000101010000000000001001101111111110001111111111110111100011111111101100000000000000001111000000001010001000000000001010001111111111111101000000000000000100000000001010110000000001011001000000000100000100000000101100000000000000101010000000000001001011111111010000011111111111110011;
	776 :	00000000010000101111111111110101111111111110110111111111000001100000000000010000000000001011011111111111010101001111111101110011111111110111110011111111111000011111111110011101000000000011110011111111101001101111111111001011000000000101100100000000000101101111111101111101111111110011110011111111001011110000000001100001000000000101010100000000100111010000000000110101111111111010000111111111100110110000000001111011111111111111110100000000000001100000000001011101000000000100011100000000010000111111111101100101;
	775 :	11111111110010001111111111101001111111111101110100000000010100110000000001010011111111110110000000000000010010001111111111111101111111111111001111111111100101111111111111010010000000000111110000000000000010101111111110111011111111111010010111111111111100000000000001001110000000000110110100000000000100011111111111111110111111111001100011111111010100100000000000110100000000001000001011111111010010110000000001100001111111111100100100000000001010011111111111111001000000000100100111111111101000010000000000110101;
	774 :	00000000000110100000000000110111111111111110010011111111110001110000000000000100000000000110001100000000000110010000000001001010000000000100010000000000001101111111111110111100000000000001101100000000000010101111111111110110111111111101110100000000011011000000000000110011000000000111000011111111111100011111111101111111000000000000111011111111101011111111111110001100111111111101111011111111110101011111111111100011000000010010000011111111111011101111111110010101111111111110000111111111110111100000000000110000;
	773 :	11111111111011110000000001000010111111111001100000000000101111001111111111100110111111111110011000000000110010111111111110111101000000000010001011111111101110011111111111011101000000000010011111111111011110001111111101100000111111111101000011111111010101101111111111111010111111111101111011111110111011010000000001010000111111111001101111111111010111111111111111101101111111111101111111111111100010101111111111110001000000000000011100000000011011110000000000100110000000001000001100000000010101011111111011001011;
	772 :	11111111010101000000000000000110111111110110101100000000011000111111111110101011000000000101111011111111010000101111111110111010000000001010011000000000100100011111111101110010111111111111000100000000100100110000000001001101111111111100100100000000011001111111111111111111111111111001000111111111100110001111111101001010111111111110001111111111100001001111111110100110111111111111101111111111110001101111111110101111111111111101011100000000001101101111111111111000111111110011101100000000001100111111111111111011;
	771 :	00000000100101001111111011100010000000000100110011111111100100111111111110001110111111111111111111111111111110111111111110011000000000000011000011111111011011001111111110110011000000001000100100000000100101000000000010011010000000000111001100000000001110111111111101110111000000000001010111111111111110010000000001010101111111111010101111111111110010100000000010001101111111111111011011111111101110110000000001000000111111111101110000000000000000011111111111010111000000001001110100000000011001011111111111001101;
	770 :	11111111111001001111111111010001000000000011110000000000001101110000000000011010111111110111011000000000000010010000000001100101111111111001110000000000010001100000000001101001000000001001010011111111111110111111111111001101111111111110011000000000001101000000000001111000000000001100010011111111111000000000000000001110111111111010000011111111001000110000000001101011000000000010001100000000011101011111111100101001111111111010001111111111110111001111111110001110000000000010101100000000010100111111111111110001;
	769 :	11111111010101011111111110110010111111111111001000000000011000100000000001001011000000000001100111111110101001111111111110100010111111110011100011111111110110110000000011000110000000000010111100000000001000110000000010000001000000001001101111111111111000101111111110000101111111111010111111111111010000001111111111101000111111110101111000000000001011100000000001111101000000000111010000000000000111011111111111101001111111111111010000000000010111011111111110101011111111111111110100000000000100011111111100111101;
	768 :	11111111111011110000000000011100000000000000011011111111101000111111111111011101000000000111000000000000001100011111111111001001111111111101001000000000100111101111111111100011000000000110010111111111110010111111111111111000111111111000111011111111100100101111111101110110000000000110000100000000000110110000000001100010000000000111010100000000001011000000000001101101000000000100000000000000001000101111111111100110000000000001110100000000001110100000000000110010111111110110101100000000101001011111111110101000;
	767 :	11111111101001011111111101111000111111111010000111111111101100010000000001000101000000000000010100000000000101101111111111010110000000000001100100000000110000001111111110011000000000000000000000000000001111000000000001111111000000000110111000000000100011000000000010101101111111111001100011111111100100000000000000110111111111111100101111111111001111101111111110110100000000001001011100000000000001010000000000110001111111111101010111111111110111110000000000100010000000000111001000000000011110001111111110111010;
	766 :	11111111010100011111111101010101111111111001001011111111111000010000000001001101111111111111101111111111111101001111111111000001000000000010100111111111011011101111111110100101111111111111110011111111110010110000000000001010000000000100101000000000000011001111111111000011111111111111001000000000110010001111111111011111000000000011011000000000001001111111111011011010111111111010101000000000000111010000000001000011111111111111000000000000110100000000000001100001000000000001000000000000001100101111111111001110;
	765 :	00000000001101111111111111000100111111111010010011111111101011110000000000110000000000000000010100000000001011000000000000000101000000000110100000000000001101000000000000111000111111110111110011111111101000101111111101100011000000001010011000000000100000011111111110101011000000001001000100000000010000100000000001011110000000000110011111111111111110001111111011101001111111111011010011111111101101110000000011011010000000000111101000000000010010111111111101000011000000001100101100000000001011010000000000011100;
	764 :	00000000010101001111111110110100111111111111000111111111101101111111111100001010111111110000011111111111101100010000000000001001000000000011101100000000001010101111111111011111111111111011111100000000010011101111111111001101000000001011100100000000001001100000000001000011111111111100111111111111100110111111111100000101111111111011110011111111110101111111111110000111000000001000011011111111001111011111111100111111111111111111011011111111100111101111111111110001000000000100011100000000010010110000000000101010;
	763 :	11111111100010010000000001100001111111111010111011111111110000000000000000101110111111111000101011111111101110010000000000110101111111111111000000000000000111010000000000010010000000000010011100000000001010101111111110101101000000000001011111111111111111100000000001111110111111111011010000000000101100100000000001011111111111111101111011111111111001011111111110011100111111111110000111111111110101011111111110011010000000000010011011111111111000111111111101010001111111111100110111111111101111100000000010000110;
	762 :	11111111101000001111111110101010000000000001000000000000001110000000000000101001000000001000011000000000101110110000000001000001000000000001001011111111111001001111111110101100000000000001001111111111100010000000000001000111111111110110100100000000001001001111111110100111000000000011010000000000011011011111111111000000000000001101001000000000110010100000000000100101000000001000011000000000010000111111111111000011111111111010111111111111110011000000000000001011111111110110100000000000100111000000000000001011;
	761 :	11111111000000100000000001111010000000001101000000000000110000000000000000001100000000000000000111111111101111101111111111111100111111111100111111111111111000011111111101111111000000001000010100000000001011001111111110110111000000001011000000000000011101111111111111110100000000001000111000000000010011010000000000001111111111111111101100000000001110111111111111100011000000001110111000000000100001101111111110111110111111110111100111111111110011001111111110101000000000001000100011111111011100011111111111011001;
	760 :	00000000001100000000000001000000000000000010110000000000000111011111111111001101111111111100101011111111001100101111111111100110111111111110011111111111101001000000000001010001000000000000001000000000001011001111111111110000000000001010010100000000010000010000000000110111000000000101101100000000010111101111111110010000111111111101000011111111011000111111111110110110000000000000110111111111100000101111111100101010000000000111100011111111110111110000000010010100111111111100001000000000000000011111111111100001;
	759 :	11111111011001001111111111001010111111110100101011111111111000000000000000001011111111111101111100000000000100010000000010011101111111110111101011111111111100111111111111011111000000000100100011111111101001010000000001011110111111110111001111111111111000101111111111011010111111111100101011111111110101111111111111100010111111111001001111111111110000000000000011011101000000000101110000000000010000010000000001011100000000001011000000000000101000001111111111100101111111111110011011111111110100100000000011001000;
	758 :	11111111101111100000000001010011111111111100100011111111110001101111111111110010000000000110011111111111110101010000000010010001111111111100000111111111111101110000000000000011111111111001000011111111101001101111111110011011111111111110011000000000011101111111111111100011111111111010010000000000000000111111111101100101111111111010011100000000001111010000000001010011111111111000010111111111100000011111111110100111000000000100001011111111110000000000000001011111111111111101011111111111101101110000000010101001;
	757 :	11111111101100100000000001001001000000000001101000000000001111010000000010000101000000000100001100000000100100111111111111100110111111111001101000000000001010001111111110110010000000000101010011111111111010111111111111100010111111110111110011111111110100010000000000010010111111111011000111111111111101000000000001011000000000000100110000000000001110011111111110111101111111110110111111111111010110010000000000011000111111101101001011111111111100101111111111000011111111111101100000000000010001000000000000100110;
	756 :	00000000100111000000000001100100000000000000011011111111011100101111111110000100000000000010000011111111111010100000000000001111111111110110000100000000111011011111111111111010000000000011011111111111110011001111111110101111000000000111000100000000001101000000000010001111000000000111110011111111101110101111111111011000000000000000110000000000000010011111111110011110111111110111101111111111101001101111111101100100000000000010100100000000011101010000000001100110000000000110011011111111110001110000000001110110;
	755 :	11111111110111110000000000011000000000000100111011111111111110001111111111011100000000000101110000000000001100100000000010110110000000000101101111111111101010000000000001001100000000000000101011111111110000111111111100110100000000000111101111111111100100010000000000010011000000000001110100000000011011101111111111000010111111111011011111111111010111111111111111011010000000000000111100000000010100110000000011101001000000000001110100000000011000000000000000101010000000001010011000000000011000000000000001000101;
	754 :	00000000000010001111111111110000000000000011011000000000000100010000000000110100111111110100010100000000000101100000000000100000111111110010101011111111010001010000000011001110000000000011010000000000010001101111111110011100000000000100001100000000010001001111111101010001111111111111000100000000010100110000000000110101111111111100100000000000000011100000000000101010111111111100001000000000001001100000000000100011000000001110111111111111011110000000000001101010000000001000111111111111111001100000000000011111;
	753 :	11111111110010101111111110010100111111111010000000000000000111011111111110101110111111111111000111111111101110110000000000010110111111111010001111111111101011110000000000011100111111111110011111111111101100010000000001011101111111111011100100000000000100100000000001010111000000000110010111111111110101000000000010110111000000001001000011111111111111110000000001110100000000000111111100000000000010100000000010000001000000000010110111111111101000000000000000100100111111111110011111111111001101110000000001010111;
	752 :	11111110100111100000000100011100111111111001001111111111001101101111111111001111111111111111101111111111101110100000000000011101000000000010000111111111000100110000000001011011000000001000001000000000001011111111111110010011000000001111000000000000010000101111111110110000111111111101100111111111010101111111111111000101111111111101000000000000000000111111111111010110111111111101110000000000111010111111111101000011000000000110010000000000001011111111111110011010000000000101101011111111110010111111111110001110;
	751 :	11111111101001100000000000110100000000000010101111111111100000111111111111111001000000000001110100000000000110101111111110010111111111110111011000000000010111000000000010000101111111111110101011111111011011111111111100010011000000000101110011111111111011110000000100110011111111111111111011111111101000001111111111010100000000000111100011111111101100110000000000110110111111111000000111111111101011001111111110100000000000000100101100000000101100100000000001000010111111111100101011111111101111110000000000010101;
	750 :	11111111011011000000000011111011111111110101111000000000101110011111111110110101111111110101111011111111010110011111111100110111000000000100011100000000011110000000000000010100111111111011100011111111110111101111111111101110111111110111000000000000101110010000000010001001000000000111000100000000000000001111111110010011000000000101010000000000000110011111111111111001000000000100111100000000010011111111111110111101111111110101001000000000011001001111111111110010111111110011110000000000000011000000000011010110;
	749 :	00000000011100010000000001001111111111111100111100000000000100101111111111011100111111111100011100000000001101101111111111101100111111111110110011111111100000001111111110011101000000000010000000000000011001110000000000001100000000000010010111111111110100111111111111011011000000001110100100000000100001011111111110001111000000001000100011111111100000101111111110000111111111111101010000000000000000000000000000010001111111111000111100000000000110011111111111101000111111111101011100000001000001001111111111101010;
	748 :	00000000011011100000000000101110000000000000010100000000110111100000000010000110000000000101001100000000100011111111111110110001000000000011111011111111000011011111111101011011000000000100110111111111011110010000000001101100000000000110100111111111110011000000000011011011111111110111111111111111110011101111111110011010111111110101100000000000000000000000000000100100000000000000011011111111101100111111111111011001111111111100110011111111010001100000000000111000111111111011110000000000001100110000000001110111;
	747 :	11111111100110010000000001001101000000000100000011111111010011110000000010001111111111111011000111111111111110010000000000010011000000000100110000000000100001110000000011011110000000000000111100000000010100101111111101111100000000000010111000000000000000111111111110011110111111111100010100000000101001000000000001001001111111111011110111111111110010011111111111100010111111111010110100000000000101100000000000100101111111111111010011111111110001101111111110011100000000000000000000000000011101010000000001011101;
	746 :	11111111101011100000000000010101111111111010010111111111011111101111111110001001000000000001110000000000000100111111111101011011111111111011011100000000100001111111111111111111000000000001011100000000001000101111111111000000111111111111010000000000100011000000000000000001000000000001110111111111100000010000000000001001000000000011111111111111110001010000000001011111111111111100001100000000001000100000000001111100000000000000111000000000001111111111111110101110000000000001111011111111100101101111111110110011;
	745 :	00000000101101011111111110110010111111111100101111111111111110001111111111101111000000000110011100000000010001111111111110010001000000000100000111111111110101111111111111010101000000000010010111111111011000111111111110000000000000010101111011111111111100000000000010001001111111111000111100000000100011001111111111000110111111111000001100000000101011110000000010100110111111110111111111111111011100111111111011111001000000000010110100000000000110010000000001000001111111111010110011111111110110101111111110100100;
	744 :	00000000011101101111111111110011000000000111110011111111110001010000000001100000111111111100001100000000011011001111111110000111111111110101000100000000100101001111111111001110000000000100101111111111011110000000000000001111111111111100100000000000011001111111111110010101111111111110101100000000100100100000000001111110000000001101011100000000000001101111111111000010000000010100110111111111010101000000000000001001111111111100101111111111011011011111111110101111000000001000111100000000010100011111111111001011;
	743 :	11111111000110010000000000101001111111111110111111111111110100111111111111010000000000001001100000000000001101010000000001111000111111110010011100000000000100101111111111110100111111111000110111111111101010110000000010100110000000000100101100000000000001101111111111110111111111111010100100000000001000011111111110011101000000000100001000000000001101100000000000100010111111111111001011111111111010101111111111100000000000000010110011111111010011000000000001100101000000000010100100000000001110111111111100101000;
	742 :	11111111101001001111111111111001000000000001001000000000000111000000000000100111000000001001000011111111101111100000000001111100111111111000101000000000111010110000000010001100111111111111000111111111101101001111111111001110111111111011001100000000001111010000000000010100111111110100101011111111001101011111111110100001111111111011111111111111110110010000000000010000000000000111100000000000000011010000000001101011111111111100001011111111100010101111111110101101111111110011101011111111111000001111111110110110;
	741 :	11111111111011100000000010010100000000000010100111111111100101000000000001101110000000001001010011111111111010000000000010010111000000000101110100000000011000100000000000001011000000000111011000000000010010100000000001111101111111110111111111111111100101011111111110111011000000001011100011111111001111101111111111001010000000000100110100000000011001010000000000011011000000000100100011111111011010011111111101110001111111111100101011111111110011011111111111111010000000000111001111111111110011011111111101111010;
	740 :	11111111010111001111111101101010000000000001001000000000001100000000000000010001000000000010010100000000001010001111111110010001000000000011111000000000010001001111111111111001111111111011110000000000001011011111111111010101000000000111011000000000001101111111111110100100111111111100101100000000001110011111111110001100111111111111010000000000000011110000000001110111000000000111010111111111101111001111111111110000111111111011111000000000011010000000000000100000111111111101001011111111110000111111111111101010;
	739 :	11111111100100010000000000100011111111111101111011111111001010000000000001011000111111111011111100000000100001111111111101000111111111111101100111111111101001100000000001010100000000000110000100000000000110010000000000110010111111111010101011111111111100111111111111100111000000000001000011111111110100100000000001011010111111111000001000000000100011100000000000110100111111111000001111111111111110110000000000101101000000000110010111111111110101000000000001110001111111111100000100000000000100110000000000101111;
	738 :	00000000010011101111111110100100000000000000000100000000010100010000000000101011111111110011101111111111011101001111111100110100000000000000001100000000010011001111111110001011000000000001011100000000000111010000000000101011111111111110000111111111100110101111111111101111000000000001100000000000001010010000000000111111111111111100011100000000010010011111111111111001111111111000111111111111111010000000000010011111000000000001010000000000001100011111111100011111000000000011011011111111011001001111111110110011;
	737 :	11111111101100101111111110101111111111110100010100000000010001000000000000111010111111111010110011111111001101000000000001101110000000000100000011111111011110111111111110110011111111111111100100000000011011011111111111010110111111110101100000000000000010100000000000110010000000001000010011111111011110010000000010101001111111111001110000000000011010000000000001010010000000000001011111111111111110111111111110101001000000000110101011111111100000101111111111001001111111111010000100000000000010010000000000100010;
	736 :	00000000000000011111111111010110111111111111110011111111011100111111111111111101111111111110010000000000001011110000000001000110000000000101111000000000101000011111111111001100111111111100111000000000000110001111111110101100111111111101011100000000100010000000000001101110111111111100110100000000001101011111111111010101000000001001011011111111110000010000000000100011111111111000100100000000011000001111111111000001000000000111000100000000010111001111111110111011111111111111111000000000011010110000000001001101;
	735 :	11111111111010010000000010000110000000000011110000000000000010010000000010010001000000001101100111111111101000101111111111110001111111111000111011111111110100111111111101010000000000000101111000000000011110101111111101111010111111111110100100000000010100000000000001001101000000000011000100000000100011111111111110111100000000001111011111111111110110101111111111110111000000000010000100000000000010000000000001011000000000000010000111111111111101000000000001010001000000000010011111111111011010011111111110110000;
	734 :	00000000010111000000000000010100111111111101010000000000110011000000000000111001111111110101111011111111101111001111111111011010000000000001101111111111100100010000000001001101000000000010000000000000010100100000000001100010111111111111110000000000101011110000000001010000000000000110001100000000001000001111111110010111000000000000101100000000010101011111111111111000000000000000111011111111110110011111111111110000000000000001001100000000101000100000000010101001000000001000111100000000010000101111111111010110;
	733 :	00000000010011100000000000100001111111111000111111111111111101100000000010111100000000000100000011111111011111001111111111011100111111110110111100000000110101001111111111000000000000000110111000000000001110111111111111101110111111110101011000000000100111011111111110111101000000000001100111111111110101110000000000001011111111111001000111111111111000101111111111110111000000000100111011111111100011011111111110000101111111111001111111111111101000010000000000000000111111110101000111111111101100000000000000000001;
	732 :	00000000101000001111111111100010000000001000001011111111110111010000000000100001000000000110001011111111110000110000000001010010000000000011100111111111101110100000000001100011000000000110110000000000001111101111111111000011111111111100111000000000100111001111111111100110111111110101101111111111111101100000000001100011111111111111110100000000011110100000000000111111111111111101101100000000010111100000000001010111000000000001101011111111110010100000000000101011111111111100111000000000011100110000000000011101;
	731 :	00000001000010011111111111000111000000000101001000000000011011101111111111101100111111111100101011111111100010010000000010001101000000000101111111111111101101000000000001111000111111111111101100000000001110000000000010000000111111111001010000000000001000010000000010000111000000000011011011111111011101001111111101110001111111110010001111111111010100000000000010000001000000000011100000000000011100111111111111101100000000000101010000000000010101001111111101110110000000001000001100000000010110011111111110111110;
	730 :	11111111100010000000000010000110111111110111100111111111110111100000000000101000000000010000100011111111111001111111111101011110000000010010110100000000011010001111111111011111111111111011010100000000101101001111111111101111000000001000111111111111111101011111111110000111000000001001100000000000001111101111111110010100000000000100001111111111110111011111111111011110111111111111110100000000101001010000000000100101000000000011001000000000010100001111111111100010111111111110010111111111111010100000000000100001;
	729 :	00000000010011000000000000001111000000000101010111111111110011111111111111011011000000001010110011111111101100110000000001110101000000000100010000000000010110111111111110110011111111111011010100000000000001001111111110011100111111111100000111111111101101001111111101011111111111111011011000000000010010101111111101100000111111111010000011111111111110001111111111011100111111110101111000000000100011111111111101000111111111111101000100000000001010111111111110001111000000000010000000000000000100011111111110010100;
	728 :	00000000011100001111111110101111000000000010101111111111101101100000000010011100000000000110010100000000111100100000000000110100111111111111101011111111101001001111111110101100000000000111011111111111110000000000000001101100111111111101011111111111110000110000000000010011111111111101000100000000000001011111111111000001111111111010011000000000010011010000000010010001111111111001000111111111111111000000000000010010000000000111111111111111110010001111111110011101000000001011111011111111110100100000000000000100;
	727 :	11111111111011110000000000001101000000000101100100000000011100111111111111001100111111111101101000000000010101100000000001101001111111110110001111111111110001110000000000110011000000000011011100000000000101001111111110100001000000000001110011111111111001110000000001111100000000000100101000000000011100100000000000010100111111111101111011111111100001100000000001010100111111111101101111111111111101100000000000110001111111110110001000000000001001010000000001110110000000001010000100000000110101111111111101001001;
	726 :	00000000000011001111111111011010111111111101110011111111111001111111111101101000000000001110111000000000001010001111111111001101000000001000111111111111011111011111111111101110000000000100010011111111011101011111111111100001111111110101010100000000100000011111111101110101111111110111000111111111101101000000000000101001000000000100110111111111001100101111111111001100000000001110001000000000100101110000000010100100000000000101001011111111111011010000000001000110111111111000110100000000000000010000000001110111;
	725 :	11111111111101001111111111100000111111111010000000000000000000101111111111001000000000000010011000000000001011100000000001110010000000000110100011111111101010001111111111100001111111111000101100000000001110000000000001010000111111110110110000000001010001101111111110010111000000001000110111111111100000000000000000100100111111110110010011111111111101001111111111111001000000000101111011111111011011000000000000011001111111111111100011111111111000100000000000000100111111111001001000000000001010101111111111010001;
	724 :	11111111111011011111111111101111111111110100100000000000101001000000000000100101000000000010011000000000000010110000000001001011111111110101111111111111110100001111111110001101111111110000100000000000101110010000000000011111000000000011010111111111100000111111111111001010000000000110101100000000001111100000000011100100111111111101000100000000010111000000000010110001111111110110110011111111110001000000000000010111000000001010101011111111101000010000000000110010111111111110110111111111110011001111111111011111;
	723 :	11111111001011000000000000001010111111111101111111111111111100100000000001010111000000000001101111111111110101011111111111001111000000000001010111111111101000101111111100100101000000000010111011111111110100100000000000010010000000000011010000000000000010011111111111000010000000000101111011111111110011001111111110110000111111111100010000000000001000001111111111010101111111111000100100000000000000010000000000101110111111111001110000000000011010111111111111011100000000000101010011111111111100100000000001010101;
	722 :	00000000101010110000000001000011000000000010010000000000000001111111111111110111000000000001101011111111110110110000000000111010111111110111111011111111111010101111111110110111111111111001111000000000000001101111111111011100000000000000000100000000000000000000000000100010111111111000010000000000011000001111111101010010111111111111011100000000100001110000000000011111111111111001110100000000011110110000000000100111111111111011010100000000100111001111111111001100000000000000101100000000001000010000000000111011;
	721 :	00000000101000100000000001100100111111111000010100000000001101110000000000110111111111111011010000000000100100000000000010001001111111111110100000000000110101100000000000100001000000000110110000000000000110000000000010010000000000000101001011111111110101110000000001011000000000001010100011111111001100000000000001111000000000000010000000000000000111110000000000010100111111111011011100000000010001001111111101110000111111101100001111111111111011001111111111100101111111111111110000000000100010010000000010110001;
	720 :	00000000100110000000000000000011111111111100011011111111110100110000000000101001111111111100111000000000010000011111111111001010111111111111011111111111100000000000000010100100000000000000101000000000010000110000000001101101000000000101100100000000010000000000000000100010000000001001100000000000010011101111111110001100111111110011011000000000011111101111111111100110000000000010100111111111110101110000000000000011111111111011001100000000001011001111111110101010000000000001000100000000011000100000000000100100;
	719 :	00000000101001010000000001100101111111111001101111111111101000011111111111010011000000001000010100000000001100001111111110111000111111110101100100000000000100010000000000100101000000000000011011111111111000010000000001010111111111111100110000000000000101101111111110010011111111110111101000000000000111100000000000111110111111111111111000000000010010110000000000010010000000000001111100000000111011000000000000111000111111111011110100000000010000010000000001011110000000000000010111111111001111000000000000110011;
	718 :	00000000000001001111111111110110111111111000111100000000001100010000000000110011111111111011111011111111001011000000000000111000111111111011000000000000001101101111111111101010000000000110101111111111110011110000000000101011111111110110100100000000101000110000000001101010111111111010011011111111101001100000000010000001000000000100100111111111011101100000000000010110000000000001101111111111100110010000000011000001111111111100010011111111110110100000000000111110000000000011000011111111111110000000000000001100;
	717 :	11111111111010000000000000011101111111110010111100000000100110000000000001100110000000000011010100000000010110100000000001010110111111111111010011111111110011010000000010001010000000000101010111111111100001110000000001101100000000000100010111111111110111011111111100111111111111111100111000000000010000011111111111000001000000000010010111111111100011001111111111111101000000000011101000000000011000111111111110111000000000000000111011111111110000100000000010000110000000001110111111111111110001001111111111001111;
	716 :	00000000000100011111111110010100111111111000010011111111111010000000000010011110111111101111001111111111111101001111111111111101000000001010101111111111111011100000000001010100000000000000100011111111110010100000000001100100111111111101011111111111100101011111111110110010111111111110101111111111111011111111111110000011000000000011101000000000010111011111111111011110111111111111100011111111111011110000000001110010000000000000010111111111110101111111111101001011000000000000010111111111100110101111111111011000;
	715 :	11111111101111110000000000100110000000000000101011111111110010010000000001100000000000000011101100000000000001010000000000001111111111111111010000000000001110001111111111111011000000001001011100000000000011010000000001010011000000000001000000000000011000001111111110101000111111111110111100000000010101101111111111111101111111111111100000000000110010110000000001000100000000000110000100000000000010110000000001010100111111111110011100000000100111100000000010010000111111111010000100000000100100000000000010010001;
	714 :	11111111111010010000000000101111111111111011001100000000011110111111111111001110111111111000010111111111111101110000000010110101111111111111000011111111111111010000000010010101000000000000111100000000100111000000000011101000000000000110111111111111110000001111111111110001000000001011000000000000010000111111111110011000000000000001010111111111111111010000000001101111000000000101011000000000000100101111111101000000000000001001001000000000000010110000000001100010000000000010111000000000001001001111111111010011;
	713 :	11111111110000111111111111101110000000000000101100000000010011010000000000010001111111111101101011111111011110111111111111111101000000000001011100000000001000100000000001010011000000000100011000000000010000110000000000111110000000000010011100000000011001101111111110110110000000000000000000000000000110011111111111100100111111111001111100000000101001001111111101101001111111111100010000000000001001110000000000001001000000000010100111111111110000010000000000000011000000001001010000000000101001101111111110001011;
	712 :	00000000010101000000000000100000000000001000011111111111101101110000000010001000000000000101000111111111111111001111111101000110111111111111000111111111110001111111111110000010000000001101101100000000001110010000000001000001111111111011001000000000011110001111111111000111000000000100101100000000011011111111111111110110111111111011011100000000000101110000000011001011111111111101100011111111111010101111111101100010111111111100101111111111101110100000000001110010111111111100001000000000010111000000000001001011;
	711 :	11111111011011101111111111110010000000000111011111111111101001000000000000001001111111111010110011111111100010110000000010000110000000000000000000000000001001010000000001101011000000000101110011111111110000000000000000100101111111111000110011111111110111110000000001100010000000000011111111111111111000111111111110011011111111111010110100000000001101000000000000110110000000000011000000000000010110101111111110110111000000000001100100000000010000001111111101100010111111111011000100000000000101111111111111010101;
	710 :	00000000001111111111111110100110111111110100101100000000000111110000000000111011000000000010101011111111100110011111111101111110111111111000111000000001001110110000000001010110111111111010111011111111101000011111111110100001111111111100111011111111111001010000000001111100000000000100010011111111101111110000000000011110111111111010110011111111011111110000000000000001000000001100111011111111101110000000000001000001111111111010111111111111100110110000000000010111000000000110101011111111111101001111111111001100;
	709 :	11111111011100111111111111110101000000000010000000000000000001000000000010000000000000000101111111111111110111011111111111100011111111111110100100000000011001100000000010011110111111111110111000000000010110011111111100110011000000000111110100000000010010000000000001011010111111111000001111111111101111011111111111111110111111111110111000000000000001000000000010010000000000000001100000000000010110000000000001111000000000001100101100000000001100101111111111110111000000000001110100000000000100111111111100010011;
	708 :	00000000000110110000000000000101111111111010110111111111110010101111111101111001111111110110001100000000001011110000000000101101111111111100101011111111001011000000000010111010000000000101100111111111000110000000000001001000111111111110010000000000100100111111111111101111000000000100101111111111011001110000000000000100000000000001100111111111011101000000000000000011111111111000110000000000001010010000000001111001000000000000110100000000000001110000000001101101000000001000111000000000001100000000000000111001;
	707 :	11111111111110111111111110111010111111111001000000000000100001100000000000101101000000000001010011111111101000100000000001111000111111110100000011111111011000010000000010000000111111111011101111111111110100000000000010100101111111111101010000000001000001111111111110100110111111111100000100000000010110011111111110010010111111111001011011111111111011111111111110101010111111111001111011111111111010010000000001011000111111110110010111111111110000110000000001110000000000001100101100000000001000111111111111011111;
	706 :	00000000110010010000000001011110111111111000100000000000000010001111111110110001111111110010101011111111111001010000000000001100000000001001111011111110101111100000000000110000000000000000100100000001001000111111111111000101000000000000111011111111110000101111111101110011111111110111001011111111101101001111111110000110111111111110100011111111101110010000000001111111000000000010001011111111011101111111111110111110000000000001011011111111101111010000000000010100111111111101111100000000010111001111111110001100;
	705 :	11111111111001001111111111101010000000000010011111111111011010101111111101111111111111111000101111111111100000111111111111011110000000001101101111111111111000000000000011011101000000001010001011111111111011001111111111000111111111111100110111111111110111110000000000100010000000000100001111111111011001110000000010001000111111111001001111111111001010000000000001000100111111111110111100000000010101001111111111111000111111111111100111111111101010011111111110101101111111111110100011111111101100110000000001000001;
	704 :	11111111101111000000000000110111000000000010011000000000001101001111111111101010111111111001111100000000001010001111111110010010000000000010000011111111110100100000000000101010000000000001110111111111100110100000000000100100000000000100000011111111011000111111111110001111000000001011000100000000100101001111111110101001111111110110011011111111101101010000000000111000111111110100000011111111110111001111111111011011111111111100000000000000000101000000000010100110111111111110111011111111101100100000000000001101;
	703 :	00000000010101110000000000001111111111111101100111111111110111110000000000000010111111111111111000000000001111001111111110101001000000000001000100000000000111110000000001101110000000000010010100000000000001101111111111010100111111111101010100000000001010010000000001100100000000001001110000000000010101010000000000000101111111111111011111111111111001001111111111101001000000001011000011111111011110000000000000101100000000000000000011111111101100001111111110101010111111111000000100000000001010111111111111101000;
	702 :	11111111001101110000000010010110111111111011011011111111101110111111111111000100111111111010101100000000000001001111111111100001111111111100011000000000010000110000000000010100111111111011001011111111110011110000000001000011111111111101001111111111110000111111111111011101111111110110011111111111011010010000000001001101000000000010000011111111100001100000000001000111111111110111101100000000001010000000000000100010111111110111101000000000100010011111111111010011000000000111111011111111110100001111111100110111;
	701 :	11111111100001011111111111110001111111111001101100000000001110110000000000101101000000000111001100000000011001001111111110001011000000000000000011111111100111011111111111101010111111111110111000000000011000011111111111011100111111110001101100000000000101011111111111010101111111110111010011111111101110010000000001000101000000000101011100000000110010111111111111001101000000000100010100000000011010101111111111110001000000000101000011111111111100111111111111110111000000000110100011111111110100001111111101001010;
	700 :	11111111100000101111111101011100111111111111101000000000000011111111111110001110000000000111110111111111110001011111111111001000111111110011010111111111010011000000000000011101000000000100010000000000001011010000000001011010111111111001100000000000011110011111111110000001111111111101000111111111011001110000000010010011111111111101110111111111001001011111111110011000111111111111000011111111101001110000000000001010111111111011111011111111111111100000000001011011111111111101100000000000010010000000000001010000;
	699 :	11111111110110010000000000001111000000000100101000000000001000000000000000010110111111110001111011111111110001100000000001011110000000000000000111111111111111000000000000100000000000001001101100000000001010001111111110001010111111110100011111111111111000000000000000001010111111111101100011111111100110100000000001100011111111111011110111111111001111011111111110101001111111110100010100000000010000001111111100110111111111110110111111111111111000000000000000110100111111111101111011111111100000010000000000001011;
	698 :	11111111011011001111111111100001000000000001010100000000101010000000000000100101000000001001001100000000010111111111111111111110000000001101000011111111110110011111111111100111000000000110110011111111000101001111111101110000000000000001100100000000001000011111111111011111111111111111010000000000001100010000000000010001000000001000111111111111100010110000000000101001000000001001010100000000000100001111111100100011000000000110101100000000011010101111111111101110000000000110010100000000000101001111111101001101;
	697 :	00000000011010100000000001001011000000001100101111111111010100010000000001100111111111110100100100000000101100010000000000101110000000000011001100000000100101001111111110010011111111111111101011111111111001010000000000101110111111111111110011111111110011000000000010101011000000000000001011111111101110010000000001110110000000000100011111111111111110110000000000011110111111110110111100000000011100100000000001011100000000000000110111111111010011111111111111100001111111110111110100000000001011011111111110000000;
	696 :	11111111111001111111111110011000111111111110100000000000011101100000000001001001000000000110000011111111111100011111111111001110000000000100101011111111110001110000000001110101111111111010010100000000011111001111111110110111111111111111111100000000010011101111111111101110111111111101001011111111111110001111111110010110111111111110010111111111010100111111111111101001111111111011000000000000000110110000000000011111111111111101100111111111110110001111111100111110000000000000101000000000001001001111111111010111;
	695 :	00000000000000111111111100010101000000000011001011111111110101000000000000110000000000000000000000000000000011110000000001111001111111111110001100000000111011000000000001011001000000000111011100000000010011111111111110111001111111111110000011111111001000010000000001101111000000000110001100000000000101101111111111110001111111111001100100000000000010001111111111000011000000000011101111111111110111010000000001111000000000000101111111111111011101010000000000111000111111110101001000000000000000001111111111011100;
	694 :	00000000011001110000000000101010000000000011100011111111100001000000000001010010000000000110001000000000011101111111111111011010000000000000100000000000100101110000000100100100111111111010010100000000000010001111111111110100111111101101100000000000001100101111111111001101000000000101001111111111100001111111111111011101111111110101000000000000011001011111111111000000000000000101100000000000011010001111111111100001111111111011100011111111101001010000000001111010111111111101111111111111101111111111111111001001;
	693 :	00000000000000111111111110010100000000001001010000000000100011010000000000111110000000000010001011111111101111000000000000100110111111111110000111111111111010101111111101110111000000001001010000000000000011101111111110101111111111111101011000000000001110111111111111111010111111111010110111111111110111011111111111111010111111111111001000000000010110011111111111110000111111111011000011111111101100011111111111001000111111111011100111111111100110011111111111011011111111110111010000000000011110001111111110110010;
	692 :	11111111111010111111111110111010000000000100101011111111111101011111111101111010111111110011100100000000011110011111111110101110000000000101111000000000010100110000000010001100000000000100101011111111110001011111111110110110000000000001011000000000001110100000000010100011111111111111000100000000100101101111111111101100111111110111010100000000001100101111111110001001000000000000010100000000010010111111111101010101111111110111001111111111100011111111111111011001111111111001100011111111010001110000000011001101;
	691 :	11111111100101111111111111101111111111110110110000000000010111101111111110110111111111110100011100000000010000101111111111011010111111111111100011111111111100100000000000111001111111111101101100000000110100011111111111011001000000000100000011111111011100011111111110011011111111111000101011111111110101011111111111111111000000000001011000000000100010001111111101101101000000001011011000000000001001011111111111101100000000000100001000000000010010011111111110011000000000000001111100000000010001000000000000111111;
	690 :	00000000011101101111111100101100000000000111100011111111010111101111111101010000111111111111110000000000100011111111111111010100111111111110101111111111110100101111111111110011000000000000100000000000010100111111111110001100000000000000010000000000011111000000000010100001111111111001001100000000010111100000000010010100000000000011100100000000101110010000000001100110000000000000101011111111010001110000000010011110000000000000110100000000001111001111111101000011000000000010101100000000000100000000000010011000;
	689 :	00000000001101110000000010011111000000000100100011111111010101110000000000100100111111111101110111111111110111101111111111111001000000000001101111111111100010011111111100110111111111111011110111111111000100001111111111000100000000000010000011111111110000100000000000010011111111111111010111111111111100111111111110011100000000000100111011111111110011110000000000111010000000000110101111111111110001011111111101111010111111111100001011111111110101100000000001110010000000000001110100000000000010011111111111101110;
	688 :	11111111110001011111111111000101000000000001010011111111110001011111111111110110000000000000100100000000010101001111111110011101000000000011010000000000010101100000000011101011111111110101001100000000001001010000000010001101000000000010011100000000011101001111111111000010000000001001000000000000100010000000000001011011111111111111111000000000011011000000000000111111000000000011000000000000011010100000000011001011000000000101101011111111111000001111111110111101111111111111010111111111111101111111111110011100;
	687 :	00000000011101010000000000001110000000000001011111111111011111011111111111001100000000000111000111111111101101101111111111110111000000000010010000000000011101001111111110111100000000000110011100000000010100110000000010110000111111111111010100000000001111000000000001011001000000000001010100000000100001110000000000110011111111111111011111111111101100110000000010000110000000000001001111111111111001010000000000000111000000000110011111111111100111100000000000100100111111111000000111111111111110001111111111010001;
	686 :	11111111111000000000000000101111000000000001001011111111010110111111111110000011111111111011000100000000001111100000000000000111111111111110110100000000000010000000000001001111111111111100100111111111111001010000000011011110000000000110110100000000001101011111111111010010000000000000011011111111110001100000000001010110000000001000110100000000011011100000000000000110000000000100110100000000100000001111111111010101000000000100101011111111011011011111111111011000000000000110101011111111110101010000000001011101;
	685 :	11111111001011000000000000000000111111111100000011111111001001000000000010010001000000000010110111111111110111000000000001011001000000000001000100000000011001100000000000111001111111110010001011111111101011110000000001001000111111111111001100000000000100111111111111010000000000000110100100000000001010111111111110110010000000001001000111111111101000101111111101101111111111111110010100000000001101001111111110010101000000000100100111111111001011110000000000111011111111111001101100000000010100000000000001101111;
	684 :	11111111101010011111111111010001111111111100000011111111101111011111111110000111111111110111000011111111111111111111111111010011111111110011011011111111110000100000000010100001111111110110101100000000001101110000000010000000111111111111010100000000100011101111111101110010111111111000101011111111111101001111111110011011111111111101010011111111111101101111111111101001000000001000000111111111110000001111111111111001111111110111001111111111101001001111111111010101111111111110110111111111101100000000000000100111;
	683 :	11111111100000000000000011001100000000001000011011111111001001110000000000101010111111111110100111111111101001010000000010001000111111111101111000000000000000101111111111101101000000000111111000000000101010110000000000101000111111111111000100000000001011010000000010010000111111110111001111111111111010101111111101101111111111101101100011111111110000110000000000111000000000000010101011111111100000111111111101001100000000001000110111111111110001100000000010001101000000001001100100000000010011110000000000000001;
	682 :	11111111011101111111111111010100000000000000011011111111110110111111111110011000111111111100011111111111100110100000000000010111111111111000100100000000001111010000000001010000000000001111010111111111111100110000000001011001000000000110011100000000010111011111111110111110000000000100100011111111100000000000000000010010111111111101100011111111011111001111111111110101111111111100100000000000000101001111111111101101111111110110101011111111110010000000000010110101111111110011010100000000000000010000000010011110;
	681 :	11111111110111011111111110011011000000000100100100000000100011100000000010000100111111111001100111111111110000011111111110101000111111111011100011111111110000010000000001001001111111111111111100000000011101111111111111001001111111110111001100000000110010010000000001001010111111111101011111111111100000100000000010100010000000000000110100000000000001110000000010010100000000001001100100000000011101010000000011001001000000000110101100000000000000111111111111101010111111110100100100000000000001110000000010010011;
	680 :	11111111110001100000000001111011000000000101001000000000100001001111111111001011111111111100001000000000101001100000000001001010111111111100010100000000001111100000000001110110000000000110101011111111100101100000000011011000000000000010010100000000010001011111111111000000000000000000111111111111101011100000000000000110000000000001000100000000001000011111111111100111111111111111011000000000110010010000000000101100111111111011011111111111011110010000000001011010000000000001001100000000001110011111111111100100;
	679 :	00000000001011011111111111100011000000000001100011111111101100100000000001000001000000000010101000000000001100001111111110010000000000000101000111111111000010001111111110011010000000001010110011111111110111101111111111111100000000000000101100000000111010111111111110110111111111111011011011111111011110100000000010000110000000000101001000000000001011101111111111000001000000000110001000000000011101111111111110110000000000000000010111111111101101000000000000111100000000000100000000000000001011111111111111111010;
	678 :	11111111111001011111111101100001111111110110100100000000011101010000000011111011000000000001101111111111011110100000000010000001000000000111100000000000100101000000000001100000000000001010001000000000000100001111111110100001111111111100111100000000001110001111111100000001111111110000110111111111110011110000000000100001000000000010100111111111110011010000000001000010000000000111000000000000000011111111111110111011111111111011000111111111110110100000000001010011000000000010011100000000010100011111111110111010;
	677 :	00000000100101001111111111001111000000001010111000000000000000110000000000010011111111111110011011111111101010001111111110101001000000000000000100000000010111101111111111000110111111111101010000000000011011010000000010100011111111111111110100000000000101000000000001101100000000001100011000000000011000011111111111010000000000000111110111111111001110110000000000101001000000000111100000000000000000111111111110000001000000000100101111111111111111111111111111101001111111110111001000000000011110110000000000010000;
	676 :	00000000111010110000000001110010000000000100101100000000110101010000000001001000000000000001110011111111111000111111111111000001111111111110011000000000100101010000000000011101000000000010111000000000001101000000000001001111000000000001100000000000101000100000000001000001000000000101000100000000010001100000000010000100111111111101001000000000011000010000000000111110000000000001001011111111101101110000000011110011000000000000100111111111111100011111111100001001111111111110001000000000001101111111111111001011;
	675 :	11111111110011011111111110110001111111111100010100000000001010001111111110110100111111111010000100000000000101100000000000011100000000000100110100000000001011111111111110100100111111110110011111111110111100100000000001101101111111111101101111111111101110111111111110101011000000000000100111111111100111001111111110000001000000000000101011111111110000001111111110100010111111111110000111111111111000010000000010101000111111110111101000000000010000001111111100010101000000001011001011111111110101100000000000010010;
	674 :	11111111111110001111111100111110111111110110001000000000011110000000000001001010000000010010010111111111101010011111111111101111111111101111010100000001011000001111111110110010111111110100011111111111100000001111111111000100000000000101111111111111110101110000000011001111000000000110100000000000011111101111111111000110111111111011011000000000000100010000000001100100111111111111101000000000000100011111111101001011000000001011001000000000000001011111111111001011000000000010010011111111110101110000000000111010;
	673 :	11111111110101101111111110111000000000000010000011111111101011100000000001001001000000000011011100000000010110001111111110110001111111111111110011111111011101010000000000100101000000001011000100000000000011010000000010011101111111111001111000000000001101101111111111110110111111111011101100000000000111000000000000110010000000000110110111111111101110011111111110001100000000000011000011111111110101001111111110101001000000000100000100000000001000001111111110011111111111111011000111111111111100011111111110111111;
	672 :	11111111010001111111111111100000111111111111001100000000010000100000000000111110111111111111000111111111101000100000000001000011111111110110010111111111110111111111111101001000111111110111011100000000100010101111111110001110111111111101101000000000001000000000000011010100000000000001111111111111011110110000000000101110111111111111100011111111111000000000000001100100000000000010010000000000001000100000000011010010111111111011000000000000010000001111111111010010111111111011011100000000000011101111111111011001;
	671 :	00000000011001011111111110011011111111111100011000000000001000101111111110100010111111110010101100000000011110111111111111101101111111101111100100000000110011100000000000111000000000000001101011111111100101101111111111100010000000000111101100000000001110010000000001111111000000000101000100000000000010101111111111000001000000000101101111111111001110101111111111100001000000000111101111111111111010010000000000010000000000000011100000000000001001001111111101110101111111101101101111111111111010010000000010100000;
	670 :	00000000011011010000000000100111111111111100010000000000011000010000000000110000000000000011110011111111100000000000000000100010000000000001101011111111110110001111111111110001000000000000010111111111110111010000000011010111000000000111001111111111011000100000000001010001111111110010110100000000000011100000000000100100000000000101011011111111110010000000000010101111000000001001010100000000010111101111111101110001111111111010010100000000011000011111111100110100111111111101110111111111110001011111111101001100;
	669 :	00000000011001001111111111100101000000000101011000000000011011010000000000101001111111111100111100000000010111000000000001011111000000000100100011111111010101100000000000000111111111111111101111111111111110111111111110001000111111111111001111111111110000000000000010101011111111111101001000000000100000101111111110110010000000000010001000000000000101011111111111011011111111111110010100000000000011110000000010000011000000000100101000000000000110011111111111010000000000001001011111111111100101010000000001110101;
	668 :	11111111011111001111111111001110000000001010110011111111011101100000000000010010111111111111010000000000000110011111111111011011000000000010011011111111010110100000000001101100000000000101101011111111110110001111111110101011111111111110110000000000000010011111111110110011000000000000000100000000001010011111111111110111000000000011010111111111110110001111111101101111111111110110100000000000101110001111111110110100111111110001000111111111101000100000000000110010111111111110101011111111111001011111111111001000;
	667 :	00000000001010010000000000001001111111111011011111111111110001110000000000001101111111111111010000000000100110010000000000100101000000000000101100000000010011101111111110011010111111111110001100000000101010110000000001011101000000000111100111111111110011111111111111101101000000000001110111111111101111111111111110010101000000001000111111111111110100111111111101111001111111111101011111111111100011000000000001000001000000001100111111111111111101010000000011011110111111111001110100000000011100011111111110011100;
	666 :	00000000010011111111111111101011000000001001010100000000010000010000000000001011111111111101011100000000000101001111111111101110000000000011010011111111110010110000000000101000111111111001110111111111111100100000000001101111000000000000001000000000101110100000000000010101111111101100000011111111111001111111111100001111000000000110100011111111111000111111111111100110111111111000110100000000001010110000000001110011000000000010100100000000110101001111111110111111000000000010110111111111111110011111111110100101;
	665 :	00000000010100010000000000110100000000000001001111111111101000011111111111011011000000001011001000000000010010010000000000100101000000000011001111111111011110000000000010001010111111111100000111111111001011110000000010001101000000000011100111111111101111001111111110000011111111111111000100000000010100000000000001001000111111111000110000000000011011000000000000101111000000000010010111111111111110011111111111100001111111111110111000000000011010101111111111000100000000000001110111111111111010011111111111111111;
	664 :	11111111111000101111111111001110111111111101100111111111111011110000000010011001111111110110001011111111101110100000000000101010000000000100010000000000001110001111111111001000111111110110111100000000010001101111111110100100000000000110100011111111100000011111111110111001000000000111011000000000011010011111111110101110111111111010101000000000000101100000000010001010000000000101100000000000001010100000000000001100000000000101101011111111110011101111111101100101000000000001100011111111001000101111111111110001;
	663 :	11111111110001000000000000001111111111110100010000000000010101111111111101100011111111111010110111111111100001100000000000011001111111111000001011111111110010111111111110010001111111111001001000000000000001000000000010000011000000000111111111111111110010101111111110101011111111111000110011111111111101010000000001011100111111111010101000000000100111110000000001001011111111110111011100000000001110010000000001001111111111111011010111111111111101001111111111010010111111110100001000000000000011111111111111101110;
	662 :	00000000000011110000000000001001111111111100010111111111110000001111111111000010111111111111010111111111010111010000000010101110111111111110100000000000100001000000000010010010111111111101100000000000100001011111111110101010000000000000000000000000000100100000000000100000111111111100011000000000011101110000000001000011111111111001011000000000010001110000000000111011000000000110010000000000100001110000000001011110111111111001101011111111110011010000000001100001000000000111111111111111011100000000000000101001;
	661 :	00000000010110101111111111110000111111111110110100000000010010111111111101001110000000000011100011111111100110111111111110010000111111111111101100000000101011101111111110111111111111111000010100000000001010110000000000101111000000000000010000000000010101110000000000000110000000000010011111111111100110011111111101111001111111111101000000000000001010110000000100001101000000000010000011111111100011000000000001111010111111111100000111111111100100101111111110000010000000000010000000000000001000000000000001001001;
	660 :	11111111111000110000000001010111111111110010111100000000011011001111111101111011111111111101111000000000001010101111111111001011111111111100100111111111100010111111111101000110000000000110001000000000100100000000000000100111111111111111110000000000001011001111111101100101111111110101111011111111011100101111111111001111000000000101000000000000010111000000000000111100111111110110001000000000100011100000000000000000111111111011110100000000001111010000000010101101000000000011000111111111111010111111111110110101;
	659 :	11111111101011000000000001101001000000000000111100000000101000101111111111001100000000000011011011111111010010100000000001111010111111110100100100000000101010111111111111110001000000000110101100000000000010000000000001111100111111110111100000000000010110010000000001110011111111111001101011111111011000011111111111000001000000000111000111111111100101010000000000011001111111111010100011111111111100100000000001110011000000000100101000000000100011000000000000111010000000000111001011111111100101000000000011001000;
	658 :	00000000010000010000000000111011000000000011001100000000010001101111111110101110111111111110111011111111111110011111111111111110000000000000110100000000001110110000000001000000111111111000100111111111100111110000000000101111111111101110100100000000000011011111111111111011000000000001000111111111111111111111111111110100111111111110001000000000100001101111111111000100000000000011101000000000000110110000000001111110111111111101110000000000011011010000000001111011000000000100111100000000011001110000000000011111;
	657 :	11111111010101010000000001010010111111111111110011111111110101011111111111111111000000000010111100000000000001100000000001010100000000000001110111111111111010110000000001001100000000000001110000000000010000001111111110111100000000000111101011111111111111101111111110011000111111111111011000000000010111110000000001010011000000001000011011111111101000000000000000000010000000000100110111111111100110110000000100000001111111111100101111111111111001111111111110011111000000000000101011111111110011100000000011010011;
	656 :	11111111011011011111111110011111000000000000100100000000111000011111111111111111000000000110010111111111110000000000000001100110111111111101010100000000001001110000000001100000111111111101001000000000001100100000000001001010000000000011010111111111100110010000000000000111000000000001000111111111100011110000000001111000000000000000111111111111100110011111111111110011111111111011000100000000010001101111111111000011000000001001100100000000000110111111111101111010000000001110000011111111101010000000000000110100;
	655 :	11111111111011010000000001111101000000000000010100000000001100111111111110000011111111111001000100000000011100010000000011011101111111110001111100000000011010000000000000001010000000001010011011111111100100000000000000001100111111111110101111111111010111111111111110001011000000000001111100000000100101010000000001101000111111111100010000000000010110111111111111011001000000000111001100000000100101011111111110000100000000000010000000000000000111110000000001110010111111111010101011111110111101100000000001101111;
	654 :	11111111100111110000000001001010111111111111001111111111110000111111111101100101000000000100000011111111101001000000000000110001000000000010000111111111110010110000000000111100000000000001001011111111111110101111111110101011000000001000111011111111110111000000000001100111000000000100010111111111100010001111111110010100000000001000000011111111110100101111111110010010000000000000101100000000110000101111111110101110111111111100001111111111101101011111111111110011000000000000100011111111101110000000000011100100;
	653 :	00000000010010100000000011001110111111111000010000000000001111011111111110100001000000001111100011111111110101110000000010111110111111110111100011111111011000011111111111001110000000000000101011111111100001000000000001000011000000000100000111111111001010001111111101011010000000001001100111111111111011110000000001110111000000000100101011111111110010001111111110011010000000000100110000000000001000001111111110010011000000001111101000000000000100000000000000010001111111111101101100000000101001001111111111101001;
	652 :	00000000000011011111111111000101111111111101001111111110111111001111111111101010111111111101100000000000010000111111111111100011111111111110000100000000000011010000000000010101111111111111111100000000011001100000000000111010111111111111010000000000000110110000000000110100000000000100011100000000000100000000000010011010111111111011010100000000011001001111111110101001111111111110111100000000100111110000000011001101111111111010011100000000100101110000000001001110111111111001111011111111101101111111111101110101;
	651 :	00000000101100010000000001000011000000000010110100000000101101100000000001011000000000000011011011111111110010010000000001001101000000000011111000000000100110001111111111100101000000000010100111111111111011110000000000101001111111111010110000000000011100001111111111000011000000000101111000000000011101011111111111100111000000001011011011111111110010010000000000110011000000000000000011111111111011111111111101011110000000000011000100000000000001010000000010001000000000000010000000000000010000110000000000101100;
	650 :	00000000011001110000000000110111111111111101101000000000010101101111111110001001111111111010001100000000001011010000000001010011000000000001100000000000000111010000000011011100000000000001010100000000101000010000000000001001000000000101001011111111111011001111111101101111111111111101100000000000001101010000000001000110000000000011010000000000111001101111111101001100000000000011111100000001000000010000000000011000000000000111100100000000100000001111111110001010111111111011100000000000011001001111111110101111;
	649 :	11111111110000101111111111010100111111111101000000000000010001010000000000111010000000000000101011111111111010110000000000001111000000000000100111111111110000101111111111110011111111110001001011111111110000110000000011010110111111110100101011111111111010101111111110000111111111111111101000000000001111011111111110101011111111111011011111111111110111110000000010101111000000000000001011111111110101110000000000110001111111110100000000000000001100111111111111100111111111110110010111111111001100101111111110101100;
	648 :	00000000100001100000000000111100111111111010000100000000111100111111111101110011111111110011111000000000110100011111111110100011000000001000100111111111111011111111111111101101000000000000000100000000011101101111111101111011111111111100000100000000011110010000000000000101000000000100011111111111010101111111111111110010000000000110011100000000010011011111111101101010000000000000001111111111100111110000000001110111000000000011000111111111011001111111111111001011111111111111111011111111110110110000000000000110;
	647 :	00000000001010111111111110111100000000000101100011111111100100110000000000100001000000000010101100000000010101001111111111101011111111111111110100000000001100001111111111100100111111111011100111111111111111010000000001001011000000000011010000000000000001001111111111110000000000000001111000000000000010000000000000010100111111111101101011111111101010001111111111100010111111111011101111111111111011100000000001100111000000000010011111111111101111101111111111000011000000001010010011111111101001110000000001001001;
	646 :	11111111111011001111111110010111111111110101100100000000001100000000000011000001000000000001101111111111101100111111111101110001111111111100001000000000010000000000000010000010111111111110011100000000010001001111111111011100000000001001010111111111101100010000000001001101111111111000100111111111110101010000000100000011111111111001010000000000000011010000000000100011000000011000011111111111101001001111111110110101111111111111011011111111100000000000000001001110000000001011110100000000011000010000000000011000;
	645 :	00000000011001100000000000001110000000001000010011111111010010110000000001110110000000000110111111111111111100001111111110011110111111111110111011111111110010000000000001010001111111111011101100000000001001000000000000001110000000000101111100000000010010110000000011101100000000000001011011111111010111011111111111000100111111111100111000000000001010011111111101101100000000000110101111111111010111010000000001101100111111111011010011111111111010000000000001101101000000001001001100000000000001000000000000001011;
	644 :	00000000001110010000000001101100000000000000111000000000100001011111111111010000000000000100101011111111111011110000000010000010000000000000100100000000001110110000000010000111000000001010100111111111001000010000000001000111111111111110011011111111101110001111111110100000111111111101110111111111100010001111111101111111111111111100001100000000000011001111111111011000111111111100011100000000001011111111111100001010111111110111111011111111001111011111111111011111000000001100011011111111101111011111111101110101;
	643 :	00000000101010001111111111011000111111111111100100000000010000110000000001001111111111111110101111111111100111001111111100100100000000000110001000000001000111010000000000100100000000000001011000000000010010010000000000001001000000000010000111111111110100011111111111010110111111111110111011111111011010001111111100001101000000000001000111111111110111111111111110010010111111110110011100000000010000010000000001101010000000001000100011111111111110110000000000000101000000001101011011111111110110110000000010000000;
	642 :	11111111101000000000000000111110000000000111101000000000100000110000000000101101111111111110100100000000010000011111111111100010000000000110001111111111101000010000000000100110111111111001101000000000101010111111111111110110000000000010111011111111100101011111111110001011000000001100101011111111111010110000000011100001111111111110001111111111110011000000000010001011111111110010001100000000001111001111111110111111111111111101101000000000001110100000000000010101111111111111100100000000111001101111111111011010;
	641 :	11111111111100001111111110111110111111111110110111111111011111001111111101100000111111101111011000000000000111101111111111101000111111111110001000000000000111010000000000100111111111111010111000000000001101000000000010000001000000000000110011111111101011010000000011000101111111111110101100000000001101111111111110010111111111111101010100000000000101011111111101011100111111110111001000000000001101110000000001110001111111111010010111111111111110010000000000101111000000000000110000000000010010010000000001110100;
	640 :	11111111111001111111111110110011111111111011111000000000001000100000000001011001000000000101010111111111111111101111111111110110000000000110111000000000000010110000000010011100000000000001111111111111100001000000000000011101000000000100001100000000011010011111111111100010111111110001011000000000011101001111111111111010000000000011010000000000011011010000000001001110111111111110011100000000000110001111111111100011000000000000001011111111101010010000000001001110000000001100001000000000001110000000000001110111;
	639 :	00000000000000111111111011010010000000001000100000000000000101011111111111100111000000000111100111111111110011110000000000000101000000000001101111111111010101111111111100110111111111111011000100000001000010110000000001011110111111111100011100000000100000011111111110111101111111111111011000000000001000000000000000100100000000000011000100000000101110100000000010100010000000000010011011111111101111101111111111100110111111111100100100000000000000000000000001101111111111110111010111111111110001001111111111010110;
	638 :	11111111010000011111111101100110000000001010001011111111101111110000000000000001111111111010001011111111111100100000000001000100000000000111011000000000001110101111111111111100000000000001101011111111011001010000000000010000000000000100110011111111111100110000000011110111000000010101101011111111111001111111111111010101000000000110110111111111101110010000000000101011111111111010010111111111111101010000000010011101111111111110010011111111110010011111111111101011111111111001001000000000000011010000000000111011;
	637 :	00000000000010101111111110110000111111111000000100000000001010001111111110111011000000000000110100000000010010101111111110101000111111111111110111111111111111101111111101011111111111110101000111111111110101100000000000001101111111111111001111111111101011010000000001001001111111111011110111111111000001001111111110001011000000000000110111111111110100000000000001001000000000000110110111111111110111100000000001000100000000000111111100000000010001101111111101011101000000000000101011111111011101111111111111101100;
	636 :	00000000011001000000000100010101000000000100011100000000001010101111111111001010111111111011101100000000011110000000000000111111000000000010001100000000101010101111111101110010111111111100111111111111111001111111111111011100000000000000010111111111111000000000000000000100000000000001101111111111110011100000000000001001111111111000001111111111110110000000000000101010111111111001010011111111110000000000000010110100111111110111101100000000011000111111111110010110111111110010111111111111111101100000000000101011;
	635 :	00000000011011011111111101001000000000000100101000000000011000010000000001011110111111111111111011111111101101011111111111010000111111110110101111111111101001010000000000010101111111111100100111111111111001011111111111010000111111111011000111111111101111111111111110100110111111111101110011111111100010010000000001011111000000000001100011111111111010100000000000000011111111111111111000000000101001110000000001000100111111111101110011111111101001000000000010111011111111111011001100000000011100110000000001111000;
	634 :	00000000001111110000000000100101000000000010001111111111110001111111111111011011111111110101101011111111001011100000000000101010000000000110010000000000100001011111111111100000111111110110001011111111101000001111111111110111000000000000011100000000000110111111111111100100000000001000001011111111011110011111111110001000000000001010011000000000100110001111111111101110000000000101010000000000000101010000000000000101111111111000111100000000000110110000000001011010111111111010100111111111110101011111111101111000;
	633 :	00000000010010000000000010010100111111111011000000000000000101100000000001011111000000000001110011111111101110110000000001100100111111110110010000000000100110101111111111101011111111110000011111111111111110110000000011011001000000000001110111111111010100000000000001011101000000000011000100000000010100000000000001011010111111111011110111111111111011100000000001011001000000000001001000000000001111100000000001110010111111111100110011111111010111011111111111111100111111111010011100000000010101010000000000000101;
	632 :	11111111111110100000000001000010000000001000110011111111111000100000000000100110000000000010001011111111101010001111111111100101111111111101111011111111100001000000000000001110000000000101110100000000011101111111111111010111000000000011010111111111100110111111111111111001111111111100011011111111001110000000000000111101111111111101001111111111110000110000000011001101111111111011010111111111111010110000000010101111111111111111000111111111110010100000000010010101111111111101001111111111100100100000000000000000;
	631 :	11111111110100000000000001011101000000000001110011111111110111101111111111011000000000000000101000000000000101101111111110101100000000000011010111111111111000100000000001011001111111111011110111111111110100011111111110110001000000000100000100000000011110101111111111111101111111111111110000000000100100110000000000110010000000000011111100000000000111010000000001101100000000000011111000000000011101110000000001100010000000000010100100000000000111110000000001110101111111111110001011111111100000110000000001001010;
	630 :	00000000000010011111111110110001111111111010100100000000000111001111111110001001000000000110110111111111100110010000000001111111000000000101100111111111101111101111111110101010111111111100010000000000011000110000000001100110000000000101110000000000001110011111111110010001000000000100000100000000100111001111111111111000111111110111100011111111011001001111111111101000111111111000011011111111100101010000000010101101000000000000101011111111100001111111111111110110000000000000101000000000000110011111111110010011;
	629 :	11111111110110000000000001111100111111111001111011111111111111011111111101110010000000000100100100000000001101010000000000111011111111111101001011111111101101001111111111010110111111111111111000000000000100011111111111101110111111111000010000000000001010100000000001011010000000000000010100000000010010111111111111100110000000001001010011111111010010100000000000101010111111111101010100000000010100011111111111111100000000001101100011111111110101110000000000011100000000000111110011111111111001110000000000101110;
	628 :	11111111001110111111111110100101111111111100000000000000001100101111111110100110000000000110110111111111011001000000000010110010111111110101011011111111100000100000000001011011000000000110100100000000100000010000000100001110000000000111010011111111110001010000000001101001111111111101000011111111110101001111111101010100000000000011110100000000001010000000000010111011111111111111010100000000011000100000000001101111000000000000000000000000001001000000000001000011000000000110011000000000101100110000000000001110;
	627 :	00000000101011100000000001110100000000000000010100000000100110111111111111101001111111111100100111111111110001100000000010101000111111110000101111111111010010100000000000000010111111111100101011111111111110110000000000000001111111111110011100000000010011111111111101110000111111111010011100000000001000110000000011011010000000000011011111111111011000100000000011111010000000000111000000000000000011011111111111110100111111111110000000000000100000110000000011010101000000001000111000000000000001111111111111000000;
	626 :	11111111110101101111111110101101111111111010111111111111110111001111111110010001000000000111111000000000011101010000000010111001000000000111000000000000010000000000000001101110000000000010110000000000000000001111111111000001000000000111100100000000001001000000000000101010000000000010101100000000110101101111111111110000111111111101000111111111100100001111111101110101111111110111001000000000000001111111111111111011111111111110101100000000110000010000000000001011111111111011110100000000101100010000000000101001;
	625 :	00000000011000000000000000110011000000000010100000000000100000111111111111110011111111110000011111111111111110000000000010100011111111111111100000000000011001100000000001001011111111111100000100000000101011101111111110011000111111111011110100000000100011100000000000011101111111110011110111111111111010010000000001100111000000000100001111111111111010000000000001111101111111110110111000000000010010110000000000111011000000000001001111111111101110110000000000111000111111101101010100000000000001110000000010101011;
	624 :	00000000001110100000000000111001111111111101111011111111010001001111111110001101000000001011100111111111111111110000000001110111111111110101011000000000001100011111111111010110111111111110101011111111010011110000000000101000000000000000010111111111110101101111111101110110000000000010110111111111010010100000000001010100000000000000000100000000000000010000000000100110000000000010100111111111101111110000000001110011000000001000001111111111110111110000000010001001111111111110111100000000000101000000000001011100;
	623 :	00000001000001010000000010011100111111111011001000000000101001011111111110010110000000000010111000000000010011010000000010101101000000000100100100000000101000110000000000000111000000000110011111111111111111110000000000111001111111111101011000000000001010100000000001011010111111111111010100000000001101010000000001101111111111111000101011111111100001100000000000100110111111111111001111111111100000111111111111101100111111111000000000000000001110111111111111110000000000000000101000000000011110010000000000001000;
	622 :	00000000100011101111111111101111111111111001111111111111101110000000000011000100000000001001001111111111111001110000000010111001111111110111011011111111100001000000000010000011000000000110110000000000000001110000000000110101000000000010111111111111101111110000000001110000000000001000111011111111110011010000000000100001111111111100001011111111011110011111111101010011000000000001010111111111111010010000000000010001111111111101101111111111101111110000000000001110111111110111011100000000100101100000000001010010;
	621 :	11111111110000001111111111110001000000000010001111111111011010101111111110110111000000000000001111111111111111110000000000111000000000001001000100000000001100000000000000111001000000000100110100000000000100000000000010011000111111110011100100000000101011101111111101101001111111110110110000000000010011111111111110101100000000000010110111111111101110010000000000001101000000000010001000000000110101000000000010010001000000001011110111111111001011011111111101100011111111111011101100000000011111101111111100110110;
	620 :	11111111110000111111111111010101111111111011101100000000010000111111111101110010111111111110001111111111101101010000000000011001000000001000011111111111110110010000000000110111000000000010101011111111000100000000000000100001111111111101011011111111011101100000000000101100000000000101101000000000000010111111111101111010000000000111011100000000001110111111111110000000111111111000001011111111111110000000000001100001000000000001010100000000001010110000000000101101000000001001000111111111100011110000000001011100;
	619 :	00000000000100010000000001001101000000000011111011111111101000111111111110111101000000000000001000000000010000101111111110110000111111111110101100000000101010110000000000101010000000000100001100000000001000001111111111100100000000000001110000000000000100100000000010001110111111110010100100000000000100001111111110111011111111110111100011111111111110111111111111110011000000000010010100000000011011110000000000110101111111111100011111111111110010111111111110011100000000000111010000000000001100111111111111111010;
	618 :	00000000001001011111111111101010111111111101011100000000010000100000000000110111000000001001111011111111111000100000000000111001000000000000010011111111011101110000000001010101000000001000011000000000000100101111111111111011000000000010101011111111110111111111111111110001111111110101011100000000001000111111111110100000111111111110001100000000000010100000000001000001000000000010011100000000110111100000000000011000000000000100101111111111100011001111111111010001111111111011000100000000010001001111111111011000;
	617 :	11111111111101110000000011010111000000000101101111111111100000100000000011000001111111111111100111111111101110001111111110100100000000000100011100000000001010100000000000010101111111111001101100000000000000010000000001000011000000000001101000000000001010100000000001110100111111111111001111111111110111100000000001111010000000000001011011111111010100111111111110101010000000000100101100000000010001111111111110010101000000000010000011111111011010001111111111110010111111111000101111111111100100111111111101100010;
	616 :	11111111111101000000000010001111000000000001101000000000001111111111111111110100111111111001000011111111101000110000000000011101111111111011011100000000010011110000000000101001111111111110111011111111101001100000000010000111111111111111010011111111001110100000000010101110000000000011110100000000000001001111111110111101111111111000100100000000000010000000000001110111111111111100010011111111110111000000000000010000000000000101100000000000001010010000000011100110111111111111110100000000101001000000000000000000;
	615 :	11111111111000110000000000110010000000000100010111111111111101111111111110010010000000000001011011111111101011101111111111001111000000001000001000000000001101100000000000111110111111111101011111111111100101101111111111111000111111111011100100000000010010101111111111100000111111111100010111111111101010110000000000101101111111111111001011111111101110001111111111001010000000000011001011111111101110101111111111001100000000000111010011111111111010100000000000111111111111111100010100000000011011100000000011100100;
	614 :	11111111110011101111111110100111111111111001100111111111111010001111111111110011111111111011011011111111010110000000000001010111000000001101011000000000001110010000000010100110000000000010100111111111101010100000000010001111111111111101010011111111111001000000000011110010000000000001001000000000010011011111111111010100000000000001001000000000010011010000000000111101111111111001101100000000000001001111111111100011000000000010010111111111110000110000000000010110111111111010010011111111101000000000000010101101;
	613 :	00000000001110001111111110111001000000000000010100000000011010100000000001100101111111111101100011111111110011110000000000001100111111111111010100000000100001110000000001100110000000000011111111111111110110011111111110000111000000001011010111111111110000111111111111111000111111111100101111111111110111110000000001110001111111110010111111111111111101011111111111011101000000000111000000000000011101001111111111111000111111110011010111111111111100001111111101000000111111110010110000000000000000010000000000000011;
	612 :	00000000000010011111111110011101111111110010111011111111101100010000000011001011111111111101011100000000000111010000000001101101111111111101110000000000010000000000000000100011000000000101010111111111011110000000000010000100111111111100001100000000000011101111111110000010000000000110011100000000010111001111111111010111111111111101011100000000110010101111111111100110000000000010101100000000001101110000000010000001000000000110111111111111110011110000000001100100000000000011001111111111010111110000000000111010;
	611 :	00000000001111101111111110000111000000000001010111111111100111111111111110011001000000000000000111111111101001111111111111010001000000000001111111111111110010101111111110010110000000000001111100000001000110110000000000000000000000000011111011111111011000000000000001110000000000000100001000000000010001001111111101111000111111111011110111111111110010010000000000010110111111111100100011111111111000001111111111100000000000001111011000000000000111000000000011100000000000000000010100000000000111001111111101111100;
	610 :	11111111011111000000000001100100111111111011100100000000101001110000000000101000000000001001111100000000001010100000000010000100111111110100101111111111110011000000000000001011000000000111000100000000111111001111111111101000111111111100110111111111011111101111111110110110000000000001100100000000011110010000000001001001111111111011001000000000101010110000000001000111111111111111010100000000010011111111111111111100111111110011001011111111111000000000000001010110000000001010010011111111111100011111111111010111;
	609 :	11111111101010001111111110101110000000001011010111111111101001110000000001010010000000000000110100000000011000000000000011011010111111111110010000000000101010011111111111001011000000000010111011111111100000001111111101010001111111111111110000000000010101000000000000110110000000000110101011111111001011110000000000111000111111111001010000000000000111100000000001001001111111111100100011111111110010001111111110110010111111111100101111111111100111111111111111011001111111111100100111111110111011111111111111001111;
	608 :	00000000011110010000000001001011111111111010111000000000011010010000000001010101111111110101100100000000011100000000000001100010111111111001010000000000001011111111111101001110111111111111100100000000100101001111111110100000000000001000000100000000001010011111111110011100111111111001100111111111110000010000000000101010111111110101101100000000110010010000000000011100111111111111110111111111101110100000000000011010000000000010111011111111111100100000000000100100000000000100100011111111111010011111111111110001;
	607 :	00000000000100001111111101011111000000000010110000000000000111000000000000110011111111110101010011111111001011100000000010100111000000000100000100000000000100110000000010010101111111111101110000000000000101101111111101011000111111111111000111111111111011001111111111101111111111111001101011111111110100110000000000001000111111111101101011111111011100100000000010011101000000000110011100000000010011101111111111101010111111111111010100000000010001101111111110101010000000000011110011111111100101110000000011000111;
	606 :	11111111110100100000000001010000000000000000000100000000001011110000000000001010000000000100110111111110111101010000000000100111111111111100011100000000000001100000000000000101111111111101111000000000101000101111111111111101000000000000001111111111100010000000000000101010111111111110001011111111100111011111111111101101000000000001100100000000011000110000000010110011111111111010110000000001000100000000000000000111000000000011100111111111001010101111111101000111111111111000111011111111101000011111111111000000;
	605 :	00000000101101100000000000110110111111111011100111111111100001011111111110100010000000000100100011111111101111101111111111001100111111110011001100000000011111000000000001000100111111101110100111111111110011001111111111111101000000000111011000000000110010110000000001101100000000001000111111111111100110010000000001011110111111111010011111111111110110110000000001100001111111111110011000000000100101110000000000011001000000000111010000000000010000110000000000110011111111110100110011111111011010001111111111001111;
	604 :	11111111111100001111111111010001111111111000101011111111110110000000000001010111111111111000010011111111111010100000000010011111111111111111101011111111111011010000000010000000111111110000101011111111101100001111111111111111111111111111110100000000010101110000000001011101000000000100000111111111010011000000000000100100000000000011001111111111111101001111111101011011111111111010001100000000100101010000000001100100000000000110100011111111100011011111111111001111111111111101011111111111100011011111111111101011;
	603 :	11111111111010010000000001110100111111111101101000000000000001000000000001000100000000000100100111111111011001000000000000001110111111111001000111111111111010111111111111001110111111111011110111111111101101101111111111101000111111110101101100000000110011000000000000011010000000000001011011111111111111100000000100011101111111110111111011111111110000110000000001101111111111110100011111111111110011111111111111100110000000000000010111111111101101001111111111110101000000000110101100000000000110000000000000010001;
	602 :	11111111011001000000000011000001111111111011011111111111111100000000000001011101000000001001110111111111100111110000000000111011000000000111111100000000010010111111111011100000111111111111100100000000010000010000000010111100111111110010000111111111101001100000000000010111000000000010010000000000000011001111111110110110111111111011111100000000010110111111111110011110000000001101000100000000110001011111111111111001000000000111000100000000001000000000000001010110111111111101101000000000010101010000000000101111;
	601 :	11111111110100011111111110011011111111111101011011111111100101110000000100111100000000000100000111111111110111000000000010000001000000000011001100000000000100010000000100001100111111111101001100000000010100000000000000101000111111111011011111111111011111011111111101100100000000001000101000000000000111100000000000000111111111111100101100000000101111010000000000010000111111110111001011111111010101111111111110110010000000000000101000000000100011101111111110010110000000000010100111111111101011011111111111100010;
	600 :	11111111010011000000000000101110000000000111110011111111110110000000000100110001111111111100110011111111010000001111111111011101111111111110111100000000100001001111111111101011111111111111010000000000001101010000000000100001111111111011001111111111100110101111111111000011111111110101101000000000010110001111111111101100000000000100101100000000000110100000000001010110111111111100110111111111101010111111111101011010111111111101011011111111101001100000000001101100000000000111001100000000100000111111111111111001;
	599 :	00000000000000010000000001111000000000000100000011111111110111000000000001011000000000000101000111111111101111000000000001111111000000000111110100000000110001111111111111101110000000000011001111111111010010100000000010001011111111111000001111111110110110001111111101110011000000000111011000000000000011110000000001101111000000000011111000000000000001100000000001010011111111111101100111111111011010001111111111011001111111111101110011111111101001000000000011000111111111111100000000000000001000101111111111101010;
	598 :	00000000010111100000000010001000111111110011000000000000010011111111111111011011000000000110101011111111111011111111111101110010000000000111110011111111110011010000000001110100000000000100101011111111101111010000000001111000000000000011001011111111110110011111111101111110000000001001110100000001000001010000000000011111000000000010000100000000000111010000000001111000000000000010100011111111001011000000000000101001000000000010000100000000101100000000000100010011111111111101110111111111110111100000000000101111;
	597 :	11111111111100000000000010101011111111111000000111111111111010001111111110101010111111111100100011111111011000100000000000100001111111111011111111111111101000111111111110110010111111111101110111111111101000100000000000011100111111111011010100000000010000001111111111101100000000000001011000000000010100100000000000111100111111111101001000000000000011110000000000110101111111111100010100000000100010010000000010000011111111111000000011111111100011101111111111001110000000001000001111111111010111111111111111111001;
	596 :	00000000000010000000000000000011111111110001101100000000001100000000000000110011000000000100100011111111011111100000000001101101000000000010101011111111111100100000000000110000111111111000101100000000110111011111111101101100000000000011010100000000011010110000000000010110111111111110011011111111111111010000000001010111000000001001011011111111110010000000000000010001111111111010100000000000000010110000000000011111111111110111010100000000011011101111111111010100111111110101100000000000010000100000000010010010;
	595 :	00000000001001111111111110100010000000000010001000000000000011101111111110000010000000000010000011111111111111101111111111001011000000010000001000000000010111100000000000111100000000000100110000000000011110011111111111010010000000000001101111111111110010011111111101111010000000000011000111111111111000000000000000101101111111110011000000000000101110010000000000100000111111111101111100000000001101110000000001000011000000000011000100000000011110110000000010011101111111111101110111111111110110111111111111101111;
	594 :	00000000011101110000000001000000111111111000011011111111101111001111111110001001000000000000111100000000000100010000000001101100000000000100010011111111100110100000000001011010000000001011010111111111111111001111111111110000111111111101011111111111101001001111111111110010000000000001010111111111101111000000000001000010000000000000100100000000000001000000000010010000111111110100010100000000010011110000000000110100111111111000101111111111111110011111111110110001000000001100111100000000011001100000000100001111;
	593 :	00000000011110011111111111011000000000000010001000000000001010111111111110100000111111111110011000000000000110011111111110101111111111110000110011111111110101001111111111111110000000000010011011111111011000100000000000100000111111111110110000000000001100111111111110011011000000000101011111111111100111011111111101110010111111110011101011111111110000010000000000000010111111111111000011111111111011110000000000100010111111110011001011111111011101101111111111010011111111111000001000000000110101011111111111001110;
