-- begin_signature
-- int_weight2_bram
-- end_signature
WIDTH=160;
DEPTH=32;

ADDRESS_RADIX=UNS;
DATA_RADIX=BIN;

CONTENT BEGIN
	31 :	0000000011101010111111111101110100000000011001010000000000111111111111111101010100000000011010110000000010010011111111100110010100000001100001101111111111100101;
	30 :	1111111111101011000000000100001000000000001111000000000100000000111111110001000100000000001110110000000010011110000000010010100011111111100010001111111110001001;
	29 :	0000000001011111000000000110010011111111101101011111111101001110000000001011010111111111011010100000000001011001000000000110000000000000110010101111111111011101;
	28 :	1111111111110011111111111011110111111111010000111111111110001011111111111101011000000000011111001111111101001101000000000010011100000000100010110000000001000011;
	27 :	0000000000100010111111111111111000000000010101101111111110011100000000000111011100000000000100100000000001001101000000000101010011111111110101001111111011100011;
	26 :	0000000010010001111111011011000111111111110111111111111100110110000000011001110000000000010010010000000011000010000000001101010011111111100111011111111111101000;
	25 :	1111111101001110000000000101110011111111011111011111111111011110111111110110010000000000110111000000000001111110111111111001110100000000101101111111111101001001;
	24 :	1111111010101001111111111001001111111110101000110000000010110101000000011100100011111111110111111111111110010001111111101010001011111111110010100000000000001011;
	23 :	1111111011011010111111111001001000000000001100100000000001010000000000000100111111111110011111101111111011001010000000010011000011111111111100100000000011110111;
	22 :	1111111011110111000000001000000100000000001000000000000010011010111111111100010100000000010010000000000100101011111111101111010100000000000001001111111011000011;
	21 :	1111111111101110111111111001111100000000101001111111111101100101000000001010110000000000011011011111111101011001111111110011000100000000000000001111111111100011;
	20 :	0000000011100000000000001110111000000000000111011111111110010111000000000101010011111111100010111111111110011000000000001001100011111111110011111111111110011010;
	19 :	0000000110111100111111111010110100000000010001101111111111010101000000000010100011111111000100000000000010000010111111111110100100000000000100010000000000101111;
	18 :	1111111110101111111111101110001000000000001000111111111100010001111111111110010111111111100101100000000011000101111111111000011100000000010000011111111110111001;
	17 :	0000000001100100111111111010110100000010000001000000000101001101111111101011101011111111000011011111111110111111000000001011011011111111001110111111111001011000;
	16 :	0000000000000100111111111101011111111111100010011111111110100011000000000010110011111111101111110000000010011101000000000111010000000000001011110000000000101110;
	15 :	1111111011010011000000000110100111111111000111010000000011010110111111110110101011111111111011001111111010111001000000001111000011111111100100100000000100011110;
	14 :	0000000010011010111111101110000111111111110011111111111110000011000000000010000000000000000101001111111110101000111111110111010000000000010011100000000111001000;
	13 :	0000000010110001111111101100011111111111111000000000000000111001111111101011000100000000101111001111111101010110000000001110011000000000010000010000000000010010;
	12 :	1111111101000011000000001100010100000000110011100000000000101100111111110011000011111111111010111111111101101001000000000000000000000001011101101111111110110010;
	11 :	1111111111010100000000000011001111111110001111011111111011110011000000000001100100000001100000111111111110110000000000010100101111111110110110010000000010111001;
	10 :	0000000010011111000000001001010111111111011011100000000110001000111111101010001011111111101001001111111101110001000000001111100000000000000001000000000001010110;
	9 :	1111111111101001000000000010001000000000000011100000000000100111111111111010100100000001110110101111111111010111111111111100011111111111000100111111111100011001;
	8 :	0000000001110101111111110010110111111111111001111111111110111110111111111111100100000001001100101111111101010100111111110010011111111111001100111111111111001101;
	7 :	0000000011111010111111110111110100000001010010110000000010110111111111101101010000000001011010001111111100110111111111101111110000000000001001111111111101011100;
	6 :	0000000000101011000000000000001000000001101101000000000001111000111111110011011100000000111100101111111101000111000000001010101111111111000000001111111110010001;
	5 :	1111111110000111000000011100011111111110110010001111111100000011000000001001110000000000000011100000000001001011111111101111011100000000010001100000000000011111;
	4 :	0000000000010011000000000001110100000000001101111111111110101101111111101010001011111111011011010000001000001101111111101011010111111111001101010000000000101001;
	3 :	0000000011001110111111111001101011111111100000111111111110000110000000001111100011111111011101010000000001010101000000010000101011111111000001000000000010101001;
	2 :	1111111111011011000000000110010100000000000011000000000001100000000000000100010011111111110110100000000001011000111111111000011111111111111100100000000001001101;
	1 :	0000000011001000000000000110010100000000011111000000000001010001111111110001000011111111111001011111111110100010000000000000011011111111101110101111111100010111;
	0 :	1111111011110011000000011011100000000001010101011111111111110101000000000101101011111110100000011111111110001000000000000011001111111111111110000000000001111010;
END;
